00
11
00
2D
00
00
17
00
0E
00
00
11
00
00
12
00
00
00
00
00
00
0F
EC
1C
00
00
00
F2
00
00
00
0E
00
00
10
15
00
EC
00
1B
15
0B
F6
16
16
00
00
F0
00
DA
14
00
F1
40
2D
00
17
F5
00
22
0C
11
00
00
19
00
00
EC
2E
00
00
00
EE
00
00
00
00
00
00
00
0D
00
00
00
0F
15
0E
F3
00
00
0F
00
F2
00
00
EE
00
00
00
E2
00
1B
00
33
14
00
00
00
00
16
0A
00
00
31
00
0F
13
00
00
1B
00
0F
EE
14
00
00
0B
EB
00
18
00
00
E8
0B
00
00
00
F2
0A
00
0F
00
00
00
0C
00
00
00
00
00
00
00
17
00
00
00
0E
00
00
00
00
15
00
00
15
00
0D
F1
00
00
00
1E
00
15
00
0F
00
10
00
11
00
00
00
10
00
24
00
00
00
00
13
00
00
26
EE
00
17
1C
00
00
17
00
00
00
00
3A
00
00
00
00
34
00
00
1A
00
2D
00
F0
1B
00
1D
00
F1
18
00
19
00
00
00
00
00
00
00
00
11
00
00
00
00
00
00
00
F2
00
00
E9
00
00
EC
00
1D
00
00
00
00
2D
00
00
00
00
00
00
DC
00
00
2E
00
00
00
00
00
00
EE
00
00
00
00
00
0F
00
00
00
00
0D
00
00
00
00
00
00
F1
EF
00
00
00
ED
F1
00
EF
00
17
00
24
00
00
28
00
00
00
00
00
00
E1
00
00
00
00
00
00
00
00
00
00
E3
00
00
00
00
F4
00
00
F5
00
00
00
00
00
00
00
E6
00
00
00
00
EE
00
EB
00
00
00
16
00
00
25
00
00
15
00
1B
00
16
0D
EF
00
0C
14
00
E7
1C
1A
00
0D
00
00
14
14
00
00
00
16
00
00
00
00
00
00
EF
F5
00
0E
00
00
00
12
00
00
00
00
00
00
CF
44
00
00
00
00
00
00
00
00
00
00
38
00
00
00
00
42
00
00
CB
00
00
00
0B
00
12
1E
E0
00
00
00
13
ED
00
EE
14
00
0C
00
EB
0F
00
00
00
0D
0C
00
0F
12
00
00
1D
C9
E6
00
E8
12
D3
D0
EF
00
00
E6
E5
0E
00
00
00
00
F5
00
0E
00
EF
00
00
00
00
00
00
00
00
00
00
00
00
00
00
00
0B
00
F2
00
00
00
00
00
00
1C
00
00
0B
00
00
00
00
00
F1
E6
1B
00
00
00
EE
00
00
15
00
E2
00
00
00
EC
DB
F0
00
0F
E6
D9
00
00
1A
F4
F6
00
00
0F
F0
00
00
00
00
00
00
00
00
00
00
00
16
00
00
00
00
0F
11
00
29
15
00
0F
EF
00
00
14
00
00
27
22
13
00
00
00
30
00
00
00
10
00
10
0F
00
00
0F
18
F2
00
0B
00
19
00
ED
00
0D
00
00
00
E5
00
00
F2
00
00
00
00
00
F4
00
0A
00
00
00
00
0F
00
00
00
F3
0A
F6
F4
00
00
F6
00
00
F1
00
F1
00
00
F0
00
F2
00
00
00
0A
00
00
00
F4
00
00
F3
00
00
F2
00
00
00
EC
00
F5
EE
00
EF
00
00
00
00
EF
00
00
00
ED
00
00
00
00
00
00
F6
00
00
00
00
00
00
EA
00
0D
00
F5
00
00
F4
00
F4
00
00
F1
F1
0A
00
EB
00
00
00
00
23
00
00
1F
0B
0F
00
2A
11
00
12
EF
27
23
10
10
00
30
1F
00
00
00
00
00
00
00
00
00
00
00
00
00
00
00
00
F3
00
00
00
00
0D
00
0E
00
00
00
00
00
E1
00
00
00
00
00
E0
D9
00
00
00
20
00
EB
13
00
00
F3
11
00
00
00
00
00
00
00
00
0D
00
2D
00
00
00
00
00
00
17
00
00
00
00
00
00
00
16
00
00
00
00
00
00
D8
BE
00
00
00
00
00
00
2D
00
00
00
00
21
00
00
00
00
00
00
00
00
00
00
00
00
00
00
00
00
00
00
00
00
0B
00
00
00
00
0F
11
00
00
00
00
1C
00
00
00
00
D7
0C
00
DA
ED
00
00
00
00
EF
D4
11
00
00
00
00
12
00
00
00
F1
00
00
00
F0
00
0A
00
00
00
00
00
00
00
00
00
00
00
00
00
00
00
00
00
00
23
1B
15
00
28
00
17
00
00
22
0B
00
00
0D
00
14
19
00
00
1C
16
16
00
00
22
00
00
00
00
00
00
11
00
12
00
12
00
00
00
0B
00
12
00
00
11
00
00
E9
00
11
EB
EB
00
00
E3
0E
00
00
00
00
E5
00
0B
00
00
00
DD
10
E6
E9
00
00
00
00
00
15
00
00
00
00
00
00
00
11
0E
10
00
EA
0D
16
00
00
00
00
13
0C
00
00
00
00
00
00
F0
00
00
