29
B4
0D
16
E1
01
08
10
0F
DD
FA
FE
10
11
ED
EF
FE
0A
0A
EC
F5
FC
13
07
F6
FD
F4
FC
FC
FA
10
E8
EA
E8
03
0F
F1
F6
09
FA
09
F7
02
D9
EA
D2
15
05
0C
4C
04
FE
DC
05
33
FF
00
9C
EF
12
F3
02
C5
F5
0A
0C
FC
C9
EE
00
09
F9
CE
EC
15
18
FD
EE
F3
FA
12
EC
E5
08
16
02
15
F9
FA
F1
0B
1C
FF
06
F2
E8
0B
07
20
DF
02
28
FB
02
1A
E6
1D
02
0C
21
FE
12
03
01
25
10
14
0D
07
13
01
16
09
03
05
10
0C
01
18
0A
02
16
07
0A
09
03
F0
06
0C
06
03
F2
0C
09
0B
19
FC
0A
E4
B2
00
EA
11
01
0C
F8
09
03
0D
1B
0B
10
12
11
22
0A
08
09
12
10
03
01
17
17
0A
02
FF
0B
FA
12
F7
08
0E
FF
0F
05
FD
11
01
00
0B
04
0F
F9
0E
20
F1
01
DF
B2
12
ED
01
EF
1D
B6
09
16
10
16
12
13
EB
09
E9
0E
EB
F4
F6
F8
17
DB
EF
02
EB
F1
E2
FC
F3
03
0E
EB
F5
01
FF
0B
E6
F1
09
F3
1A
01
07
F2
ED
06
FA
F4
00
EE
E1
21
F3
D7
00
06
EB
FA
F1
0B
12
D9
FF
F7
1C
25
EE
01
06
06
22
F1
0C
F0
EF
10
FC
04
12
E8
FA
14
F8
05
EE
03
F3
F0
0D
F2
F8
FF
EE
06
E8
FB
08
06
29
3F
EB
2A
00
0C
21
E2
26
03
08
22
03
16
F9
0D
05
F8
11
06
0A
15
F5
19
FD
06
0E
03
FC
06
FE
FD
14
DB
F4
0B
F9
0A
0E
F4
00
02
0C
0F
FC
15
FE
1D
FC
04
D7
A1
1C
02
FA
03
FC
1A
F3
FB
1A
FA
0B
EF
FD
F5
E0
0A
F6
F9
19
F3
08
FC
EC
05
F4
0F
DE
F2
04
01
04
FB
08
13
E5
13
E9
EC
ED
0E
FB
01
FF
04
F5
DF
FA
FA
FE
35
F8
2C
F9
0F
19
03
01
FF
16
1A
06
FF
01
1C
14
F4
0C
00
11
20
F6
F2
03
17
14
FA
06
FA
18
0E
ED
0C
02
13
0D
F6
08
02
0F
10
EF
04
FF
0D
09
0F
F0
FE
B2
A5
21
EA
F2
0A
01
31
DC
F9
05
FD
27
F7
F7
18
00
1E
E7
FA
12
FE
06
F2
F8
0A
FA
FF
FD
F9
FF
FA
FE
0B
F8
F0
00
FB
EB
ED
ED
01
0D
08
E7
F8
05
BC
03
0C
F5
2C
FD
E9
94
20
0B
F7
04
BF
10
DE
0A
E6
E7
E3
03
0C
03
DF
EC
10
FE
CF
E7
E0
0C
0A
0E
E0
0F
F0
FB
18
F9
01
EB
EF
E3
FC
3C
02
F7
E4
15
05
11
F1
F4
FC
07
EC
08
09
FE
0A
FD
08
00
F6
0B
E9
0C
F9
F6
06
DF
03
FC
F3
10
E9
FF
F8
E8
0A
DB
FD
EE
F8
0E
D9
F7
ED
07
24
F8
07
D7
0D
39
F0
09
13
FC
1D
F0
D5
11
13
03
35
1F
A8
08
FB
F2
17
F0
EA
0A
0B
24
EB
F1
F4
FC
1F
FE
FA
04
EA
19
0B
FA
15
F2
02
0B
FB
16
01
F9
F5
FB
09
17
03
F7
F9
ED
F2
02
07
F0
ED
04
DF
FE
11
FD
37
00
14
F3
EB
BB
FF
06
0C
F8
D5
EB
CC
1B
1A
F0
F1
FE
08
07
E1
FD
FF
F9
0A
1C
01
02
04
1E
F3
22
EB
FC
F6
1E
0B
BF
E0
F2
E6
08
CE
08
28
05
EF
04
FF
FD
10
02
00
A5
E6
3C
0F
E0
06
DE
0E
10
F3
15
F4
FB
09
D1
06
D9
EF
FC
18
1D
F4
01
E8
03
F4
19
E7
FD
B8
F0
E9
07
11
15
13
0D
F4
F8
29
FD
DF
10
08
02
0C
05
F1
EE
17
0E
0A
03
FA
01
0E
F9
0E
E6
10
02
00
12
EB
18
13
0A
17
00
06
13
FC
1E
F7
0B
05
15
07
FD
0A
0A
0B
1C
FB
0A
06
25
1F
02
17
0A
15
05
36
F7
0C
F9
BD
03
DF
03
10
FF
10
B6
FB
13
0F
14
FA
E4
08
EB
08
EF
FA
EE
DB
0A
E8
0B
02
E1
12
D0
09
F9
DF
FA
0E
F5
FC
DD
EC
F7
18
E6
EB
EB
F8
22
0F
FE
DF
0B
03
FA
39
01
F4
F4
01
ED
F9
03
F9
FF
F6
F3
FA
F8
FD
09
EE
09
00
F4
F8
F8
FB
FC
FF
F7
06
00
F6
05
FC
F3
08
FC
00
0A
06
05
F1
EE
04
F1
0A
F0
F8
07
FD
0D
F7
FB
FE
F6
12
01
0B
20
0F
0C
F1
11
03
C4
F9
12
DA
38
1A
DA
EC
16
F5
09
FA
FF
06
08
F5
FF
0A
F4
07
F6
06
FC
07
FD
FF
BD
FF
FB
F7
0E
18
FD
0B
F6
00
05
F3
EB
CF
F9
14
F9
04
F3
E7
04
17
E5
09
DB
15
0F
DE
FA
FE
2E
FF
EC
09
1B
CB
F1
E8
02
0C
0D
0A
1F
19
12
E5
07
0A
EF
0E
C3
03
19
09
11
16
20
16
F5
19
07
FD
27
F9
