00
00
00
16
D5
C8
00
00
1F
00
00
00
00
00
E9
00
78
20
00
00
00
00
00
E8
00
00
00
00
ED
14
00
00
00
00
00
00
00
00
00
00
00
1D
21
00
00
46
00
17
00
D8
00
19
00
00
00
DF
8C
00
00
00
00
00
00
00
00
00
00
14
00
00
00
E8
00
00
15
00
13
00
00
00
00
22
21
00
00
00
00
1C
E1
00
00
19
00
E9
25
00
8D
00
00
00
19
00
1A
00
00
00
00
00
E6
00
E2
00
00
00
27
C7
9A
E2
23
00
00
DF
00
2A
E0
00
CD
00
00
00
00
00
00
00
00
34
00
00
00
00
00
00
00
14
1E
00
00
1E
00
00
00
17
00
E8
14
00
EB
E6
00
16
00
24
00
18
14
00
1F
00
00
00
00
00
00
00
00
EB
00
D5
00
D4
20
00
00
00
00
3D
37
00
E4
CC
EA
00
00
00
00
00
00
00
23
DB
