15
47
F0
EB
1A
EA
07
05
EC
18
28
12
0D
D6
B7
1C
0F
FB
F9
18
0A
33
FD
09
E9
18
F5
1D
FB
0C
05
21
18
DB
FA
F5
1B
0B
DF
FF
05
ED
E8
EF
E9
F7
0F
F0
FE
EB
FC
F9
F6
FB
FC
EB
F2
FF
F9
01
04
DE
F6
13
31
ED
1A
09
1D
E3
F8
FB
08
02
FE
1F
09
10
1B
08
FD
69
F7
03
EA
03
FC
0D
03
28
55
0B
07
F6
C4
E4
0D
FA
E3
BD
FC
CF
09
15
24
E3
0A
F5
26
F9
EE
FC
FD
26
01
06
12
F3
1D
01
F0
E5
12
07
06
05
09
0A
21
E0
EF
1A
0A
18
FB
1B
FF
0C
0B
1A
21
36
F7
1A
FC
1F
D2
FB
E5
31
06
03
19
02
08
03
17
05
F5
0C
FB
2E
F7
EE
0C
08
F6
12
F5
2D
31
03
12
EA
FB
12
1F
0D
F3
11
15
F8
F0
E3
FE
03
0B
F8
E9
FC
ED
F8
FA
07
00
FA
ED
17
F5
F2
